[[{},{},{},{},{},{},{},{},{},{},{},{}],[{"weights":[-1.2760754654372877,-0.3623346985443768,-0.03364721493811147,-0.49747133623073414,-0.031410537007642944,-0.2036241519597696,-0.5660064235864788,0.030489133634000534,-0.0024752428197532196,0.15859087503455324,0.6442830605038072,-0.38821741576171165],"bias":-2.546924693537713},{"weights":[-0.04228882223029154,-0.5480104536039909,-0.6401914985247168,0.08833508127422333,0.20666160707342474,0.08116947850313871,0.0758238179860658,-0.9183655798602608,-0.9576966581108677,-0.44894636002430427,-0.16661007765937194,-0.2632874793794422],"bias":-1.1271527230653675},{"weights":[-0.09465000121582852,-0.387704305973255,1.6094143122676003,-0.12013942905959925,0.5506457329624943,-0.9208225745427463,0.321955527849746,-0.9856304972476493,0.6711468042938092,0.21396790672208574,0.5554707567863892,0.24132603838821443],"bias":-1.2997620722825307},{"weights":[-0.8524401890880621,0.9724266240463462,-1.1309360855600405,0.08618579011669657,0.11718683190561102,-0.3461440841738693,-0.9172193551236296,0.8765397545578822,-1.3516704486899604,-0.7282116633669423,0.2540237217422523,-0.06634152337031256],"bias":-0.8885473300641835},{"weights":[0.8421514870657966,0.3934133064518482,-0.17219116843567714,0.16937011679778313,0.026059735036842065,0.5510577233002169,3.285133120053796,-0.49634550380750836,-0.18927404452360863,0.07639346344310985,-0.031222461610282814,0.0009282647836820306],"bias":1.486609182671605},{"weights":[-0.4140047971889831,0.20704487979857858,-0.5281100454439478,-0.516114017541953,-0.2463523246490734,0.1859194474548171,-0.5278558846679262,0.10113239938490409,0.08715682591164943,0.028159109726091425,0.05667698331626049,-0.24589930019288067],"bias":0.6815465357726167}]]