[[{},{},{},{},{},{},{},{},{},{},{},{}],[{"weights":[-1.0974339024124207,0.6370924484734216,-0.17606866318337194,-0.2797570327186317,0.4614602300785856,0.39172481942065357,0.22906717948336477,0.37024072647421835,0.6696605662221626,0.18412745784946993,-0.6676552293475874,0.23837861212582034],"bias":-0.17475142513392516},{"weights":[0.05169985270184767,-0.7808344948733306,-0.15562677219610246,0.03257879797691354,-0.3520056933234322,-0.17761532716128137,0.580665721832219,-0.3016124007900398,0.4211460258909663,-0.2953266903383327,1.0308632407495488,0.8992068174791582],"bias":1.9589377024542598},{"weights":[-0.6568631797141857,0.7795459540392402,-0.07975305128738525,0.5167673410422164,-0.2681180816325622,0.41238543839431874,-0.5330734660270635,0.3792418363603295,0.5939693403768133,0.5009673825468821,0.27675427127747165,0.08687344402859984],"bias":0.6075670548554499},{"weights":[0.55921918861975,0.327339112896304,0.1885965518886361,1.0864363342749894,0.392512965213756,-0.164487632436207,0.176297629751338,-1.0068965374554826,-0.21967640609377156,0.15304961128640487,0.39498760565663393,0.13489300173001853],"bias":-1.1043691242551406},{"weights":[0.5030289000715575,-0.402707848414044,-0.20979832043359514,0.23485087701221083,-0.895495834611673,-0.6138770945903859,-0.7852686428565091,-0.6989814348218846,-0.6437590886681649,0.3750180273489077,0.7444967008079173,0.0580216147946066],"bias":-0.47075367381083255},{"weights":[-0.13811209704430105,0.19378887792578667,0.12339529122015208,-1.1066853487491868,-0.21674646006607792,-0.265520791005907,0.6834406447587712,-1.176465474823324,-0.012818512760998975,-0.20423983777630478,-0.5365465426486637,-0.1558709514363752],"bias":-0.41119376377369654}],[{"weights":[-0.5113223658986439,0.6032947798279951,0.6778325489522616,0.06090999041288275,-0.10671686203264535,0.12986860925645505],"bias":0.47817300556028997},{"weights":[0.9122926791752801,0.02473337005418387,-0.10987298552149105,0.41045130277961217,-0.34609619578236733,0.030082033699788412],"bias":-1.0832016208447952},{"weights":[0.8638621742620805,-0.6947528553763089,0.36710930861153,0.5055533373424579,0.13767715353310916,0.13763621743324744],"bias":-1.254249381140665},{"weights":[-0.18749903195866996,0.45048974185201573,0.406003144291825,0.6256659571276533,-0.2973397476984241,1.0935671483257239],"bias":0.05751940961135173},{"weights":[0.8568093454528488,0.9751395578932097,-0.7028587743502179,0.52696135709287,-0.40112296707205586,-0.0528553314119395],"bias":-1.2792848727076744},{"weights":[0.4598564693793756,-0.2006742699212929,0.6439326796984266,0.022521707325352705,-0.4959371352836335,-0.7874880438306068],"bias":0.15602386896311868}],[{"weights":[0.3406264586438151,1.0310782121319886,-0.286639690597334,0.5293593422009356,0.021630620274056725,0.04777032238094597],"bias":-1.236263923777785},{"weights":[0.11172573551347548,0.16341395555519866,-0.25212267095199914,-0.15074274795233877,-0.03100730864854117,0.09028779890072641],"bias":-0.38028598579167994},{"weights":[-0.3983455203191244,-0.37218650233965755,0.5202603635287582,-0.3011619086753198,0.18795806729038278,0.4516041599234264],"bias":0.4696905696224004},{"weights":[0.006317160621773373,0.32294284188997313,-0.826009579120669,-0.20990311445633317,-0.15979550185125765,0.3762940270982876],"bias":1.559280311856377},{"weights":[-0.4259634148169874,0.17803291294728246,0.04558918161128394,-0.307378980081213,0.044962914294993786,-0.0919507540869664],"bias":-0.9764995277366115},{"weights":[0.0785724700079108,0.5100362311996587,-0.7774497233741778,-0.32555579945363067,0.7765337466650661,0.3706547072529975],"bias":1.139794229042656}],[{"weights":[-0.40210173542814975,-0.1914166265733026,0.6943245250890481,-1.032546569674724,-0.20664804300163742,-0.24478785149681984],"bias":-0.7572470519387766},{"weights":[0.17713036241093139,-0.04497865366122085,0.2001956157366218,0.22623033776239365,-0.6253412426784759,0.47042276304237474],"bias":-1.671085294260698},{"weights":[0.158182243986131,-0.14881999865452955,-0.16910081989181064,-0.13366850937961502,0.1636134995525227,0.14159020839759917],"bias":-0.8786860995971035},{"weights":[0.5408570235690602,-0.21129470141816295,0.04312645418359359,0.3161017889105934,0.06660742226299858,-0.8939312916695403],"bias":1.4943179674218023},{"weights":[0.032036005374807344,0.6485758125839871,0.12654543271295407,0.22944376424105203,-0.6177922545348545,0.519241544994458],"bias":-1.2434950610829578},{"weights":[0.7405098388093551,-0.21017408049783437,0.6190557896368118,0.7463637920993134,1.038692984058648,0.3607434432745711],"bias":2.7387966780729713}]]