[[{},{},{},{},{},{},{},{},{},{},{},{}],[{"weights":[-0.2193410205282722,0.2643208418044959,-0.25954918257897536,-0.4804349852990427,-0.7389647302817592,-0.1610941611439236,0.25130478061441086,-0.9342366220231433,-0.31732917553464757,-0.799059243603417,-0.12601711232098184,0.7633665365070221],"bias":-0.3732354831173754},{"weights":[-0.06739231923278899,-0.47646143441757993,1.2482007518052811,-1.1307804405883983,-1.0535312912361878,-0.34832737363110466,-0.028320932018925715,-0.23640004594851322,0.5668998113977839,-0.5681948800249252,0.320352503789376,0.6008002131238079],"bias":0.9535242776415098},{"weights":[-0.04709519581516064,0.47140299286553194,-0.06989609110278983,0.07819634385239274,-0.4469307964913164,-0.5583987632338737,-1.1802936108762263,-0.4241785991039756,0.21495121459907018,-0.2849039369605986,0.5420607953733685,0.694920644988436],"bias":0.5358520104427311},{"weights":[-0.8583530111425479,-0.2602334906520403,-1.1891685850031728,-0.6470095941480667,-0.2443163527454762,-0.14350846201171338,0.43749600914820386,0.38484062919650175,1.0030897162026762,-0.5561187723940489,-0.7539201921052091,0.10392046257708981],"bias":0.3913566214493608},{"weights":[-0.2665593756482515,0.7798933570867179,0.7381995099379639,0.5221881591547377,-0.03726344211110774,0.4711870712572232,-0.33697379474410033,0.5017337609975142,0.46424174315100386,1.673239220926047,0.4480472184833848,0.00934845116957854],"bias":1.018008310451228},{"weights":[-0.38081849249954086,-0.02169969443284933,0.10828868253508972,0.6798773354938143,-0.2161092939035767,0.9402005258335365,-0.2920221273118955,0.5925604498722148,-0.042801469461207775,-0.13748861643677898,-0.4336770152557471,-0.7555843853550399],"bias":0.3429762345766577},{"weights":[-0.2005474968019115,0.7858321017511625,0.3235461465048126,0.45679523445655135,0.5347525547469169,-0.25558235138410274,0.28160815493846053,-0.8759944432595104,0.7164225159828526,-0.4827961914054515,0.011278252372994124,-0.516459073783106],"bias":-0.2590240543581314},{"weights":[0.09514396404039803,0.8020664504036881,-0.9494934725224684,-0.5426478875161065,-0.5853875420530195,0.0885655274648095,-0.6159657498752314,0.5766404473812818,0.3283199765162599,0.04153169762343528,-0.4582166303025082,-0.4946975589392356],"bias":0.1423368126390518},{"weights":[-0.716378306805503,0.2658053737114797,0.4955208809266833,-0.32619166024681007,1.0553001513054634,-0.018161123766829934,-1.0823309564641468,-0.5198230978469695,0.4663350189762693,-0.28025574027794753,0.11094827750253983,-0.8875728196462694],"bias":-1.426463997830917},{"weights":[-0.2703916786701674,-0.22990379792479126,0.13918967693083162,0.5959729010731859,-0.653767448269476,-0.19357819833570644,0.47637483954522686,1.4182404314120545,-0.14286712930233803,0.45046626043140525,-0.28246326201867455,-0.373548781315167],"bias":-0.8804629299418515}],[{"weights":[-0.3087499072142357,0.2244579256916419,-0.40881216775117896,-0.7467581253538871,-0.6533695789286922,-0.09072533978490327,-0.7876456876043916,-1.2633112601209175,-0.7615483396241387,0.24135731308116032],"bias":0.4417065381802117},{"weights":[-0.6830849899675489,0.8090882829406221,-0.07401896498763144,0.23565682362623552,-0.9269164024136075,0.06274089008531393,-0.43578957832485415,0.7771943456855382,-0.2568674194305536,-1.0356034959168459],"bias":-0.87448395108762},{"weights":[-0.7663975119758377,-0.18186755961800694,0.12667644383348728,-0.5479645435665903,-0.04829709807822302,-0.26526955709881905,-0.6199276581641637,0.9271326007667496,-0.3444452484797458,-0.29126632311017275],"bias":-1.6373859731260947},{"weights":[0.20400308046374002,-0.12193299123913681,0.8895112269104795,-0.12468171680306739,0.24955313718437921,0.2881311301187526,0.1651840480524137,0.41716031598878056,0.0482254525371103,-0.560511730113447],"bias":-1.764480440374724},{"weights":[-0.2783865067952791,0.7953123975446964,-0.07113858670542385,-0.618292478576708,0.19219405054799737,-0.9869856464919394,-0.3544967356413905,-0.081386588065916,0.35846168390076916,0.2654711459247838],"bias":-0.7287350738285667},{"weights":[-0.12112459960878863,-0.16856965939631968,0.9738047569477483,-0.3484173124979088,0.559228993208867,0.810320248538801,-0.18618054350139385,-0.11947111196218205,-0.6100880860219516,0.7986744125643148],"bias":0.7359575609888233}]]